#include "model_data.h"

const uint8_t model_data[] = {
    0x08, 0x00, 0x00, 0x00, 0x54, 0x46, 0x4c, 0x33, 0xae, 0xff, 0xff, 0xff,
    0x14, 0x00, 0x00, 0x00, 0xc4, 0x01, 0x00, 0x00, 0x1c, 0x00, 0x00, 0x00,
    0x20, 0x00, 0x00, 0x00, 0x03, 0x00, 0x00, 0x00, 0x03, 0x00, 0x00, 0x00,
    0xa4, 0x01, 0x00, 0x00, 0x5c, 0x01, 0x00, 0x00, 0x40, 0x01, 0x00, 0x00,
    0x01, 0x00, 0x00, 0x00, 0x34, 0x00, 0x00, 0x00, 0x01, 0x00, 0x00, 0x00,
    0x10, 0x00, 0x00, 0x00, 0x0c, 0x00, 0x0e, 0x00, 0x07, 0x00, 0x00, 0x00,
    0x00, 0x00, 0x08, 0x00, 0x0c, 0x00, 0x00, 0x00, 0x00, 0x00, 0x00, 0x09,
    0x09, 0x00, 0x00, 0x00, 0x00, 0x00, 0x0e, 0x00, 0x18, 0x00, 0x14, 0x00,
    0x10, 0x00, 0x0c, 0x00, 0x08, 0x00, 0x04, 0x00, 0x0e, 0x00, 0x00, 0x00,
    0xb4, 0x01, 0x00, 0x00, 0x10, 0x00, 0x00, 0x00, 0x14, 0x00, 0x00, 0x00,
    0x18, 0x00, 0x00, 0x00, 0x1c, 0x00, 0x00, 0x00, 0x01, 0x00, 0x00, 0x00,
    0x38, 0x00, 0x00, 0x00, 0x01, 0x00, 0x00, 0x00, 0x03, 0x00, 0x00, 0x00,
    0x01, 0x00, 0x00, 0x00, 0x00, 0x00, 0x00, 0x00, 0x04, 0x00, 0x00, 0x00,
    0xb8, 0x00, 0x00, 0x00, 0x8c, 0x00, 0x00, 0x00, 0x64, 0x00, 0x00, 0x00,
    0x48, 0x00, 0x00, 0x00, 0x00, 0x00, 0x0e, 0x00, 0x14, 0x00, 0x00, 0x00,
    0x10, 0x00, 0x0c, 0x00, 0x0b, 0x00, 0x04, 0x00, 0x0e, 0x00, 0x00, 0x00,
    0x2c, 0x00, 0x00, 0x00, 0x00, 0x00, 0x00, 0x08, 0x08, 0x00, 0x00, 0x00,
    0x0c, 0x00, 0x00, 0x00, 0x01, 0x00, 0x00, 0x00, 0x03, 0x00, 0x00, 0x00,
    0x03, 0x00, 0x00, 0x00, 0x00, 0x00, 0x00, 0x00, 0x01, 0x00, 0x00, 0x00,
    0x02, 0x00, 0x00, 0x00, 0x04, 0x00, 0x04, 0x00, 0x04, 0x00, 0x00, 0x00,
    0xa8, 0xff, 0xff, 0xff, 0x44, 0x01, 0x00, 0x00, 0x04, 0x00, 0x00, 0x00,
    0x02, 0x00, 0x00, 0x00, 0x01, 0x00, 0x00, 0x00, 0x03, 0x00, 0x00, 0x00,
    0xe8, 0xff, 0xff, 0xff, 0x38, 0x01, 0x00, 0x00, 0x02, 0x00, 0x00, 0x00,
    0x04, 0x00, 0x00, 0x00, 0x01, 0x00, 0x00, 0x00, 0x03, 0x00, 0x00, 0x00,
    0x0c, 0x00, 0x10, 0x00, 0x0c, 0x00, 0x00, 0x00, 0x08, 0x00, 0x04, 0x00,
    0x0c, 0x00, 0x00, 0x00, 0x24, 0x01, 0x00, 0x00, 0x01, 0x00, 0x00, 0x00,
    0x04, 0x00, 0x00, 0x00, 0x02, 0x00, 0x00, 0x00, 0x03, 0x00, 0x00, 0x00,
    0x04, 0x00, 0x00, 0x00, 0x0c, 0x00, 0x0c, 0x00, 0x08, 0x00, 0x00, 0x00,
    0x00, 0x00, 0x04, 0x00, 0x0c, 0x00, 0x00, 0x00, 0x10, 0x01, 0x00, 0x00,
    0x04, 0x00, 0x00, 0x00, 0x02, 0x00, 0x00, 0x00, 0x01, 0x00, 0x00, 0x00,
    0x04, 0x00, 0x00, 0x00, 0xaa, 0xff, 0xff, 0xff, 0x04, 0x00, 0x00, 0x00,
    0x0c, 0x00, 0x00, 0x00, 0xcd, 0xcc, 0x4c, 0x3d, 0xcd, 0xcc, 0xcc, 0xbd,
    0x0a, 0xd7, 0xa3, 0x3c, 0xc2, 0xff, 0xff, 0xff, 0x04, 0x00, 0x00, 0x00,
    0x30, 0x00, 0x00, 0x00, 0x9a, 0x99, 0x99, 0x3f, 0x33, 0x33, 0x33, 0xbf,
    0x9a, 0x99, 0x99, 0x3e, 0xcd, 0xcc, 0xcc, 0x3d, 0xcd, 0xcc, 0xcc, 0xbe,
    0xcd, 0xcc, 0x8c, 0x3f, 0xcd, 0xcc, 0x4c, 0x3e, 0x9a, 0x99, 0x99, 0xbe,
    0xcd, 0xcc, 0xcc, 0x3d, 0xcd, 0xcc, 0x4c, 0xbe, 0x66, 0x66, 0xa6, 0x3f,
    0xcd, 0xcc, 0x4c, 0x3f, 0x00, 0x00, 0x06, 0x00, 0x08, 0x00, 0x04, 0x00,
    0x06, 0x00, 0x00, 0x00, 0x04, 0x00, 0x00, 0x00, 0x00, 0x00, 0x00, 0x00,
    0x45, 0x00, 0x00, 0x00, 0x54, 0x69, 0x6e, 0x79, 0x20, 0x66, 0x6c, 0x6f,
    0x61, 0x74, 0x33, 0x32, 0x20, 0x6e, 0x75, 0x6d, 0x65, 0x72, 0x69, 0x63,
    0x20, 0x63, 0x6c, 0x61, 0x73, 0x73, 0x69, 0x66, 0x69, 0x63, 0x61, 0x74,
    0x69, 0x6f, 0x6e, 0x20, 0x6d, 0x6f, 0x64, 0x65, 0x6c, 0x3a, 0x20, 0x69,
    0x6e, 0x70, 0x75, 0x74, 0x5b, 0x31, 0x2c, 0x34, 0x5d, 0x20, 0x2d, 0x3e,
    0x20, 0x6c, 0x6f, 0x67, 0x69, 0x74, 0x73, 0x5b, 0x31, 0x2c, 0x33, 0x5d,
    0x2e, 0x00, 0x00, 0x00, 0x12, 0x00, 0x00, 0x00, 0x6e, 0x75, 0x6d, 0x65,
    0x72, 0x69, 0x63, 0x5f, 0x63, 0x6c, 0x61, 0x73, 0x73, 0x69, 0x66, 0x69,
    0x65, 0x72, 0x00, 0x00, 0x06, 0x00, 0x00, 0x00, 0x6f, 0x75, 0x74, 0x70,
    0x75, 0x74, 0x00, 0x00, 0x0a, 0x00, 0x00, 0x00, 0x64, 0x65, 0x6e, 0x73,
    0x65, 0x5f, 0x62, 0x69, 0x61, 0x73, 0x00, 0x00, 0x0d, 0x00, 0x00, 0x00,
    0x64, 0x65, 0x6e, 0x73, 0x65, 0x5f, 0x77, 0x65, 0x69, 0x67, 0x68, 0x74,
    0x73, 0x00, 0x00, 0x00, 0x05, 0x00, 0x00, 0x00, 0x69, 0x6e, 0x70, 0x75,
    0x74, 0x00, 0x00, 0x00,
};
const uint32_t model_data_len = sizeof(model_data);
